#pragma once

unsigned char model_data[] = {0x1c, 0x00, 0x00, 0x00, 0x54, 0x46, 0x4c, 0x33, 0x00, 0x00, 0x12, 0x00, 0x1c, 0x00, 0x04, 0x00, 0x08, 0x00, 0x0c, 0x00, 0x10, 0x00, 0x14, 0x00, 0x00, 0x00, 0x18, 0x00, 0x12, 0x00, 0x00, 0x00, 0x03, 0x00, 0x00, 0x00, 0xa4, 0x14, 0x00, 0x00, 0xcc, 0x0f, 0x00, 0x00, 0xb4, 0x0f, 0x00, 0x00, 0x34, 0x00, 0x00, 0x00, 0x04, 0x00, 0x00, 0x00, 0x01, 0x00, 0x00, 0x00, 0x04, 0x00, 0x00, 0x00, 0x04, 0xec, 0xff, 0xff, 0x08, 0x00, 0x00, 0x00, 0x0c, 0x00, 0x00, 0x00, 0x13, 0x00, 0x00, 0x00, 0x6d, 0x69, 0x6e, 0x5f, 0x72, 0x75, 0x6e, 0x74, 0x69, 0x6d, 0x65, 0x5f, 0x76, 0x65, 0x72, 0x73, 0x69, 0x6f, 0x6e, 0x00, 0x0d, 0x00, 0x00, 0x00, 0x74, 0x0f, 0x00, 0x00, 0x64, 0x07, 0x00, 0x00, 0x5c, 0x07, 0x00, 0x00, 0x54, 0x07, 0x00, 0x00, 0x04, 0x07, 0x00, 0x00, 0xfc, 0x06, 0x00, 0x00, 0xf4, 0x06, 0x00, 0x00, 0xec, 0x06, 0x00, 0x00, 0xdc, 0x02, 0x00, 0x00, 0x4c, 0x02, 0x00, 0x00, 0x3c, 0x00, 0x00, 0x00, 0x1c, 0x00, 0x00, 0x00, 0x04, 0x00, 0x00, 0x00, 0x42, 0xf0, 0xff, 0xff, 0x04, 0x00, 0x00, 0x00, 0x05, 0x00, 0x00, 0x00, 0x31, 0x2e, 0x35, 0x2e, 0x30, 0x00, 0x00, 0x00, 0x56, 0xf0, 0xff, 0xff, 0x04, 0x00, 0x00, 0x00, 0x10, 0x00, 0x00, 0x00, 0x3c, 0xb0, 0x6c, 0x3d, 0x36, 0x1c, 0x05, 0xbe, 0x13, 0x70, 0x2e, 0xbc, 0x7e, 0x9c, 0x73, 0x3d, 0x72, 0xf0, 0xff, 0xff, 0x04, 0x00, 0x00, 0x00, 0x00, 0x02, 0x00, 0x00, 0x08, 0x85, 0x46, 0xbf, 0x32, 0xa0, 0x46, 0x3e, 0x53, 0xb4, 0xd0, 0xbe, 0xf1, 0x6a, 0x92, 0x3e, 0x43, 0x39, 0x10, 0xbe, 0x64, 0x50, 0x3f, 0xbd, 0xa7, 0xfe, 0x08, 0xbe, 0xb4, 0xf3, 0x9d, 0xbe, 0x4e, 0x57, 0x36, 0x3e, 0x91, 0x87, 0x9b, 0xbd, 0x30, 0xf3, 0x89, 0x3b, 0x0a, 0xd9, 0xcb, 0x3e, 0x7d, 0x49, 0x48, 0x3d, 0x57, 0x30, 0xb8, 0xbe, 0x46, 0x75, 0x2f, 0xbe, 0x5d, 0x67, 0x4d, 0xbf, 0xf7, 0x50, 0x9c, 0x3e, 0xcf, 0x9f, 0xa7, 0x3e, 0x59, 0xf5, 0x2f, 0x3f, 0x71, 0x1a, 0xaf, 0xbe, 0x55, 0xc4, 0xb6, 0x3e, 0xb9, 0xb4, 0xec, 0x3e, 0x2e, 0x86, 0x63, 0x3e, 0x35, 0x2b, 0x5a, 0x3e, 0xaf, 0x03, 0x6c, 0x3e, 0xf4, 0xe3, 0xd4, 0xbd, 0x00, 0x9b, 0x62, 0xbe, 0xc3, 0x72, 0xa9, 0x3d, 0x06, 0x0c, 0x16, 0xbf, 0xe3, 0x65, 0x00, 0xbf, 0xbe, 0x79, 0x36, 0xbe, 0x7d, 0x3d, 0xe8, 0x3e, 0x78, 0xbe, 0x71, 0x3e, 0xd4, 0xc1, 0x70, 0xbe, 0xcc, 0xc9, 0x60, 0x3d, 0x4a, 0xd1, 0x27, 0xbf, 0xcc, 0x38, 0xd9, 0xbe, 0x03, 0xf2, 0x03, 0x3f, 0x57, 0x9c, 0x7a, 0x3f, 0x12, 0xbc, 0x48, 0x3e, 0x19, 0x38, 0x8f, 0xbe, 0x3e, 0xb2, 0x32, 0x3f, 0x26, 0x61, 0xe2, 0xbe, 0xee, 0xa3, 0x08, 0x3d, 0x6c, 0x0d, 0x07, 0x3f, 0x47, 0x56, 0xbe, 0x3e, 0xb3, 0x89, 0xd2, 0xbe, 0xef, 0x9d, 0xf6, 0x3d, 0x4d, 0x50, 0x76, 0xbe, 0x23, 0x77, 0x84, 0xbc, 0x95, 0x3b, 0xa0, 0xbe, 0xea, 0x27, 0x30, 0x3e, 0x29, 0xed, 0x81, 0xbe, 0x10, 0x94, 0x12, 0xbe, 0xdf, 0x25, 0x27, 0xbf, 0x8f, 0x5d, 0xbd, 0xbd, 0xa3, 0x5f, 0xe6, 0xbe, 0x15, 0x22, 0x7b, 0x3e, 0x65, 0xe6, 0x93, 0x3e, 0x10, 0x2f, 0xa1, 0x3e, 0x79, 0x78, 0xda, 0xbd, 0xdd, 0x0b, 0x7f, 0x3c, 0xe5, 0xed, 0xb8, 0x3d, 0x21, 0x05, 0x03, 0xbe, 0x48, 0x78, 0x50, 0x3e, 0xc1, 0xcf, 0x8b, 0x3e, 0xf4, 0x75, 0x98, 0xbe, 0xef, 0x9f, 0x55, 0x3e, 0xde, 0x88, 0xba, 0xbb, 0x90, 0x1f, 0xa5, 0x3c, 0xed, 0x66, 0xf3, 0xbd, 0xdf, 0xf2, 0x40, 0xbe, 0x1e, 0x6a, 0x57, 0xbe, 0x81, 0xc1, 0x84, 0xbd, 0x7e, 0x83, 0x83, 0x3e, 0xf5, 0xe5, 0x42, 0x3d, 0x08, 0xe2, 0x16, 0x3d, 0x1c, 0x64, 0xc8, 0x3e, 0xd9, 0x34, 0x71, 0x3e, 0x22, 0x2b, 0x3b, 0x3d, 0x2b, 0x65, 0xac, 0xbe, 0xc9, 0xc6, 0x61, 0x3d, 0x7c, 0x14, 0xb0, 0xbe, 0x5f, 0x29, 0xac, 0x3d, 0x7c, 0xec, 0x1d, 0xbe, 0x9f, 0x98, 0xf8, 0x3e, 0x7d, 0x40, 0x3e, 0x3e, 0x23, 0xe9, 0x2a, 0xbe, 0xaf, 0x79, 0x94, 0x3e, 0x90, 0x76, 0xda, 0x3e, 0x51, 0x8e, 0x48, 0xbe, 0x9d, 0x85, 0x0a, 0xbe, 0xe7, 0xa4, 0x8a, 0xbc, 0x1c, 0x6b, 0x49, 0x3d, 0xea, 0x32, 0xba, 0x3e, 0x93, 0xae, 0x6d, 0xbe, 0x69, 0xb1, 0x37, 0x3e, 0x7d, 0x47, 0x3b, 0xbe, 0x2a, 0xa8, 0xdc, 0xbc, 0x4a, 0xac, 0x8e, 0x3e, 0x7b, 0x8c, 0x49, 0x3e, 0xbe, 0xf6, 0x23, 0xbd, 0x7a, 0xf2, 0x07, 0xbe, 0x70, 0x5a, 0x74, 0x3e, 0x0e, 0x30, 0x6d, 0xbe, 0x33, 0x2f, 0x9a, 0xbd, 0x9a, 0x5f, 0x9f, 0xbe, 0x89, 0x91, 0x3d, 0xbd, 0x81, 0xff, 0xe1, 0x3e, 0x01, 0x7e, 0x89, 0xbc, 0x2f, 0xdf, 0x86, 0x3e, 0x6c, 0xe0, 0x96, 0x3d, 0xed, 0xc9, 0x38, 0x3e, 0xdb, 0x1c, 0x94, 0xbe, 0x12, 0xf9, 0x9b, 0xbe, 0x40, 0xa8, 0x28, 0xbe, 0x6b, 0x09, 0x2f, 0xbe, 0x6e, 0x42, 0x61, 0x3e, 0xff, 0xb7, 0x66, 0x3e, 0xef, 0x4d, 0xc3, 0x3e, 0x42, 0x05, 0xc9, 0xbb, 0xaa, 0x47, 0xc7, 0x3e, 0x4c, 0xa0, 0xb9, 0x3e, 0x79, 0x42, 0x8a, 0xbe, 0x97, 0x51, 0x1b, 0xbd, 0xdc, 0x4a, 0x86, 0x3d, 0xdc, 0x44, 0x08, 0xbd, 0xff, 0x75, 0x85, 0x3e, 0x7e, 0xf2, 0xff, 0xff, 0x04, 0x00, 0x00, 0x00, 0x80, 0x00, 0x00, 0x00, 0x9f, 0xa1, 0x46, 0xbd, 0x7d, 0x24, 0x22, 0x3d, 0xd8, 0x3d, 0xc0, 0xbc, 0x4d, 0x6f, 0x49, 0x3e, 0x97, 0x23, 0x20, 0xbe, 0xb6, 0x40, 0xfa, 0xbd, 0x97, 0x74, 0xad, 0xbc, 0x9d, 0x97, 0xa5, 0xbc, 0x4f, 0xef, 0x80, 0xbd, 0xd0, 0xd4, 0x8c, 0xbe, 0x0b, 0x66, 0x3b, 0xbe, 0x51, 0x33, 0xc1, 0x3d, 0x3d, 0x70, 0xdd, 0xbd, 0x9b, 0x20, 0x06, 0xbe, 0xf9, 0x8e, 0x1c, 0xbe, 0x3d, 0x7a, 0x46, 0xbd, 0x9e, 0x73, 0x36, 0x3e, 0x72, 0xc3, 0x0b, 0xbb, 0xbd, 0x6b, 0xc9, 0x3d, 0x3a, 0x25, 0x7d, 0xbd, 0x9e, 0xec, 0x73, 0xbd, 0xf9, 0x6c, 0xe5, 0x3d, 0xcd, 0x84, 0xa5, 0xbd, 0xf4, 0x82, 0x77, 0x3d, 0x5a, 0x79, 0x0b, 0xbe, 0xfe, 0xde, 0x2c, 0xbc, 0x76, 0x6a, 0xa4, 0xbd, 0xb5, 0xbe, 0x13, 0x3e, 0x3f, 0x32, 0x40, 0xbe, 0x4e, 0x23, 0xb8, 0x3b, 0x49, 0x99, 0xe3, 0xbd, 0xea, 0xe2, 0x0c, 0x3e, 0x0a, 0xf3, 0xff, 0xff, 0x04, 0x00, 0x00, 0x00, 0x00, 0x04, 0x00, 0x00, 0xe2, 0x61, 0xa0, 0xbe, 0xf0, 0xde, 0x35, 0xbe, 0xc2, 0x72, 0x1e, 0x3e, 0xbc, 0x90, 0xd0, 0xbe, 0x47, 0xae, 0xf9, 0x3e, 0xe2, 0x9d, 0x92, 0x3e, 0x1f, 0x13, 0x23, 0x3e, 0xf5, 0xe0, 0x44, 0x3d, 0x33, 0x3f, 0x23, 0x3e, 0x63, 0x42, 0xec, 0xbd, 0x20, 0xdb, 0x5a, 0x3e, 0x07, 0x9b, 0x21, 0xbe, 0x86, 0x0e, 0x4f, 0x3f, 0xdb, 0xab, 0x1e, 0x3c, 0x0b, 0x03, 0x3d, 0xbe, 0x48, 0x6c, 0xa7, 0x3d, 0x3c, 0x9c, 0x6c, 0xbd, 0x8e, 0xd5, 0xb1, 0x3c, 0x5b, 0x5c, 0xad, 0x3e, 0x51, 0xbb, 0x5a, 0xbe, 0x85, 0xf0, 0x96, 0x3c, 0x2f, 0x29, 0xe3, 0xbd, 0xef, 0xb1, 0xbc, 0xbd, 0xc2, 0x4f, 0x9c, 0x3c, 0x9c, 0x07, 0x13, 0xbf, 0x9d, 0xee, 0xe0, 0x3d, 0xc2, 0x90, 0x2d, 0x3e, 0x28, 0x2b, 0xb0, 0xbe, 0xec, 0xb2, 0xab, 0x3e, 0x86, 0x0c, 0x0e, 0x3e, 0x62, 0xae, 0xb8, 0x3e, 0xb1, 0xae, 0x6c, 0xbe, 0x8f, 0xe3, 0x97, 0x3d, 0x33, 0x88, 0xa2, 0x3e, 0xe1, 0xfd, 0xda, 0xbc, 0x8f, 0x0a, 0x0b, 0xbf, 0x79, 0x2c, 0xdc, 0x3e, 0x3a, 0xfc, 0xad, 0x3d, 0x2c, 0x21, 0x99, 0xbe, 0x99, 0xe5, 0x7d, 0x3e, 0x5b, 0xc3, 0x5d, 0x3e, 0x00, 0xc2, 0xd4, 0x3c, 0x4c, 0xfb, 0xa2, 0xbe, 0x47, 0x19, 0xcb, 0xbe, 0x32, 0xe6, 0x64, 0x3e, 0x14, 0x8d, 0xd5, 0xbc, 0xd2, 0x43, 0x71, 0xbe, 0x07, 0x83, 0x7b, 0x3e, 0x30, 0xdb, 0x29, 0xbd, 0xbe, 0xac, 0x27, 0x3f, 0xfc, 0x56, 0x61, 0x3c, 0xc1, 0xa1, 0x6c, 0xbe, 0xeb, 0x0b, 0x2e, 0x3e, 0x9b, 0x39, 0xeb, 0xbd, 0x9c, 0x42, 0xb0, 0x3d, 0xa0, 0xd2, 0x9b, 0x3d, 0x4a, 0xb4, 0xc5, 0x3e, 0x58, 0xe3, 0x04, 0x3f, 0x49, 0xbe, 0x09, 0x3d, 0xfe, 0x54, 0x92, 0xbe, 0x80, 0xd4, 0x7c, 0xbb, 0x5f, 0xad, 0x98, 0xbd, 0x08, 0xd2, 0xed, 0x3e, 0x48, 0xc5, 0x3c, 0xbd, 0x58, 0x12, 0xb4, 0xbe, 0xfa, 0xd9, 0x5a, 0xbe, 0xa6, 0xb1, 0xca, 0x3e, 0xd8, 0x88, 0x63, 0x3e, 0x89, 0xe7, 0xf6, 0x3d, 0x55, 0x86, 0xd7, 0x3d, 0x57, 0x7c, 0x9c, 0x3e, 0x66, 0x07, 0xc8, 0x3c, 0x27, 0x16, 0x2a, 0xbf, 0xb5, 0x39, 0x0a, 0xbe, 0x3e, 0x38, 0xe8, 0x3e, 0x48, 0x08, 0xcd, 0x3c, 0x5b, 0xf1, 0x9b, 0x3d, 0x31, 0x11, 0xae, 0xbd, 0x61, 0x22, 0x6a, 0x3e, 0x17, 0xed, 0x8e, 0xbe, 0x61, 0x54, 0x6a, 0xbc, 0x2c, 0x4b, 0x09, 0xbe, 0xe2, 0x2a, 0xc0, 0x3d, 0x7b, 0xcb, 0x1a, 0xbe, 0x66, 0x72, 0x2d, 0x3f, 0x40, 0xf0, 0x15, 0x3e, 0x06, 0xa2, 0xc7, 0xbe, 0x7b, 0x86, 0xb7, 0x3d, 0x1c, 0x3b, 0xbd, 0xbd, 0x19, 0x7d, 0x82, 0xbe, 0x9d, 0x3c, 0x76, 0x3e, 0x3c, 0x7d, 0xcc, 0x3d, 0x5d, 0x50, 0x4a, 0x3f, 0xd8, 0x52, 0xe7, 0x3e, 0x8d, 0x5d, 0x72, 0xbe, 0x76, 0x68, 0x0c, 0x3e, 0xf3, 0x9e, 0x34, 0xbd, 0xe1, 0x02, 0x27, 0x3f, 0x81, 0x7e, 0x72, 0x3e, 0x54, 0xa0, 0xa1, 0xbe, 0x4f, 0x2c, 0x91, 0xbd, 0x5a, 0x19, 0x55, 0xbe, 0xcf, 0xee, 0xdf, 0x3e, 0x71, 0x6e, 0x7d, 0x3e, 0x31, 0x24, 0x56, 0xbe, 0x9f, 0xaa, 0xfb, 0x3e, 0xd9, 0x7f, 0xb9, 0x3e, 0xef, 0x6e, 0xa7, 0xbe, 0x7f, 0xa8, 0xba, 0xbd, 0xc2, 0x08, 0x16, 0xbe, 0x9c, 0x11, 0xc2, 0x3e, 0xcd, 0x49, 0x02, 0xbe, 0xeb, 0x3d, 0x2b, 0x3e, 0x63, 0xc7, 0x71, 0xbe, 0xc7, 0x07, 0xc9, 0xbd, 0x2a, 0xa0, 0x81, 0x3d, 0x1c, 0x3c, 0xd0, 0x3e, 0xda, 0x41, 0x0a, 0x3e, 0xec, 0x46, 0x43, 0x3e, 0x4f, 0x01, 0x7c, 0xbe, 0x20, 0x70, 0xc2, 0x3d, 0x5c, 0x12, 0x7f, 0xbe, 0xf2, 0x6f, 0x52, 0xbe, 0x92, 0xba, 0x5d, 0xbe, 0x60, 0xb9, 0x81, 0x3f, 0x9c, 0x34, 0x80, 0x3e, 0xd0, 0xc9, 0x12, 0xbe, 0x31, 0xb2, 0x76, 0x3e, 0x60, 0x81, 0xd9, 0x3e, 0x1f, 0x99, 0xc1, 0xbd, 0xbc, 0x3d, 0x17, 0xbf, 0x35, 0x11, 0x29, 0xbe, 0xf0, 0x1e, 0x91, 0x3d, 0x02, 0x05, 0x93, 0x3d, 0x88, 0x7a, 0x03, 0xbf, 0x04, 0xb8, 0xcd, 0x3d, 0x34, 0x58, 0xc0, 0x3e, 0xfd, 0x1b, 0x19, 0x3e, 0x76, 0xc3, 0x99, 0xbd, 0x5f, 0x31, 0xf6, 0x3c, 0xed, 0x87, 0x38, 0x3e, 0x20, 0xba, 0x92, 0x3e, 0x36, 0xc0, 0xe4, 0xbe, 0x67, 0xac, 0x00, 0x3e, 0x21, 0xa3, 0x57, 0x3e, 0x12, 0x5c, 0xcc, 0x3e, 0x03, 0xaf, 0x16, 0x3e, 0xe9, 0x9f, 0xc3, 0xbe, 0xcb, 0x0b, 0x84, 0x3d, 0x33, 0x2f, 0xb7, 0xbe, 0xe6, 0x06, 0x6a, 0x3e, 0xe1, 0x2d, 0x7e, 0x3e, 0x1f, 0x8a, 0x36, 0x3f, 0x48, 0x7b, 0x0d, 0x3f, 0x85, 0xd6, 0x77, 0x3e, 0xb0, 0xe3, 0x2c, 0xbe, 0x98, 0x1e, 0x96, 0xbd, 0x3e, 0x9f, 0xdc, 0xbe, 0xfb, 0x4d, 0xa2, 0x3e, 0xc1, 0x85, 0xa9, 0x3e, 0xbd, 0x4e, 0xa6, 0x3e, 0xa0, 0x49, 0x2f, 0xbe, 0x63, 0x4b, 0x14, 0xbf, 0x6b, 0x53, 0x2f, 0x3e, 0x24, 0xd4, 0x37, 0x3e, 0x40, 0xda, 0x17, 0x3f, 0xf5, 0x79, 0x32, 0xbf, 0x3d, 0x49, 0x49, 0x3e, 0x56, 0x57, 0x07, 0x3e, 0x85, 0x60, 0x68, 0x3e, 0xde, 0x1f, 0x98, 0xbe, 0x39, 0x2a, 0x98, 0xbd, 0x48, 0xf6, 0xf7, 0xbd, 0xd3, 0x8c, 0x1a, 0x3f, 0xba, 0x6d, 0xa6, 0xbe, 0xf5, 0x5b, 0x2e, 0xbe, 0x82, 0x5b, 0x50, 0xbe, 0x4b, 0x12, 0xb4, 0x3d, 0xb1, 0xd8, 0x88, 0xbe, 0xb4, 0x85, 0x71, 0xbd, 0xab, 0xfe, 0x54, 0x3f, 0x97, 0xc9, 0x77, 0x3e, 0x34, 0xc7, 0x3e, 0x3d, 0x44, 0x7a, 0xb0, 0x3d, 0x2e, 0xbb, 0x17, 0x3e, 0xe5, 0xb3, 0x59, 0xbe, 0xd0, 0xf4, 0xd4, 0xbd, 0xbc, 0x28, 0x5a, 0xbe, 0xec, 0xc2, 0x4b, 0x3f, 0xd6, 0x95, 0xbb, 0x3e, 0x15, 0x2a, 0xa8, 0x3c, 0x55, 0xa7, 0xbd, 0xbd, 0x2e, 0x5a, 0x51, 0xbd, 0xf5, 0x44, 0x1a, 0x3e, 0x38, 0x33, 0x43, 0x3e, 0xd2, 0x52, 0x20, 0xbe, 0x0b, 0x25, 0x6a, 0xbf, 0xb7, 0x61, 0xc5, 0xbc, 0x75, 0xcd, 0xc5, 0xbc, 0xdb, 0x95, 0x0e, 0x3e, 0xb9, 0x96, 0x0f, 0x3e, 0xd2, 0x56, 0x2e, 0x3e, 0x65, 0xe5, 0xd7, 0x3d, 0xee, 0x44, 0x56, 0x3e, 0xe4, 0xe8, 0x0d, 0xbf, 0x59, 0x5e, 0x19, 0xbf, 0x4b, 0xf4, 0x0f, 0x3e, 0xaf, 0x02, 0x26, 0xbe, 0x18, 0x9d, 0xfd, 0x3d, 0xc7, 0x79, 0x5b, 0xbe, 0x18, 0x41, 0xca, 0xbe, 0x16, 0x45, 0x16, 0x3e, 0xac, 0xc7, 0x0d, 0xbe, 0x2c, 0x70, 0x01, 0x3f, 0xd7, 0x06, 0x0c, 0xbf, 0xb8, 0xd2, 0x20, 0x3e, 0x46, 0xa3, 0x82, 0x3e, 0xa5, 0x5d, 0xc5, 0xbd, 0x2d, 0x90, 0x8c, 0xbe, 0xa6, 0x20, 0x7a, 0x3e, 0xfb, 0xfd, 0xab, 0x3d, 0x7d, 0x65, 0xf2, 0x3e, 0x63, 0x8f, 0xdc, 0xbe, 0xf6, 0x4d, 0x47, 0xbe, 0x65, 0xf3, 0xe7, 0xbe, 0x37, 0xeb, 0x18, 0xbf, 0xcf, 0x3d, 0xf4, 0x3d, 0x40, 0x42, 0xa2, 0x3e, 0xa2, 0xfc, 0x01, 0xbe, 0xb2, 0xd0, 0xf2, 0x3d, 0x93, 0x35, 0xc6, 0xbd, 0xa8, 0x13, 0x81, 0xbe, 0xf4, 0xc0, 0x36, 0xbe, 0x9d, 0xb0, 0x2d, 0xbf, 0x73, 0x85, 0x3e, 0xbe, 0xa6, 0x71, 0xb0, 0x3e, 0xbe, 0x4c, 0xad, 0xbd, 0x8c, 0xa9, 0xbc, 0x3d, 0x57, 0x94, 0x57, 0x3d, 0xe3, 0x21, 0xbc, 0xbe, 0xba, 0xff, 0xf1, 0x3e, 0x7f, 0xff, 0x66, 0xbd, 0x6c, 0x3a, 0xae, 0xbe, 0x0e, 0x3c, 0x76, 0x3d, 0x35, 0x42, 0xcf, 0xbe, 0x0c, 0xc8, 0x6b, 0x3e, 0x6f, 0xdf, 0x16, 0xbe, 0xfd, 0xe3, 0x11, 0x3d, 0x0a, 0x5c, 0xc1, 0x3d, 0x90, 0xc6, 0xbe, 0xbd, 0x67, 0x13, 0x0b, 0xbf, 0x3a, 0xc3, 0xf8, 0x3d, 0x0a, 0xbb, 0xa4, 0xbe, 0x43, 0xc7, 0xae, 0x3e, 0x58, 0x8b, 0xcf, 0xbe, 0xd5, 0x24, 0xc5, 0x3e, 0xcc, 0xf2, 0xff, 0xff, 0xd0, 0xf2, 0xff, 0xff, 0xd4, 0xf2, 0xff, 0xff, 0x22, 0xf7, 0xff, 0xff, 0x04, 0x00, 0x00, 0x00, 0x40, 0x00, 0x00, 0x00, 0xc2, 0x03, 0x13, 0xbe, 0x9a, 0x5f, 0x48, 0x3d, 0xaf, 0xb0, 0xb7, 0xbe, 0xa4, 0x1b, 0x4c, 0xbe, 0x37, 0xee, 0xf5, 0x3d, 0x5c, 0xd1, 0xc0, 0xbd, 0x5f, 0x0a, 0x44, 0xbc, 0xb4, 0xed, 0x2c, 0xbe, 0x84, 0x0f, 0x91, 0xbe, 0xe7, 0x6d, 0x31, 0xbd, 0x40, 0x62, 0x01, 0xbe, 0x47, 0x68, 0xe7, 0xbd, 0x7e, 0x95, 0xc0, 0x3d, 0xd3, 0x24, 0x41, 0x3a, 0x10, 0x7d, 0x9d, 0x3e, 0xd4, 0xba, 0x39, 0x3d, 0x24, 0xf3, 0xff, 0xff, 0x28, 0xf3, 0xff, 0xff, 0x76, 0xf7, 0xff, 0xff, 0x04, 0x00, 0x00, 0x00, 0x00, 0x08, 0x00, 0x00, 0x0f, 0xcd, 0x09, 0x3f, 0x1c, 0x3a, 0x20, 0x3e, 0xa3, 0xdd, 0xb6, 0xbd, 0x46, 0x81, 0x1e, 0x3e, 0xf5, 0x8c, 0x4b, 0x3d, 0x9c, 0x66, 0xd6, 0x3e, 0x4e, 0x9a, 0xb5, 0x3d, 0x3f, 0x79, 0xb8, 0x3e, 0x59, 0x1f, 0x3a, 0x3e, 0xca, 0xed, 0x84, 0x3d, 0xcc, 0xab, 0xe5, 0x3d, 0xcd, 0xed, 0x3d, 0x3f, 0x61, 0x1f, 0x12, 0xbf, 0xeb, 0x05, 0x66, 0x3e, 0x57, 0x16, 0xc9, 0xbd, 0x6d, 0x5d, 0x91, 0xbe, 0xe4, 0xc6, 0x2d, 0x3c, 0x12, 0x9f, 0xd7, 0xbe, 0x5e, 0xc4, 0xc4, 0x3e, 0x4e, 0x8e, 0xa3, 0x3e, 0xc5, 0x32, 0x43, 0xbf, 0x80, 0x7a, 0xad, 0xbd, 0xe7, 0x19, 0x40, 0xbb, 0xa8, 0x55, 0xd7, 0x3d, 0x49, 0x0d, 0x9b, 0x3e, 0x1a, 0x90, 0x8e, 0x3d, 0xb2, 0x35, 0x1f, 0x3e, 0xc5, 0xad, 0x1e, 0xbe, 0x42, 0x89, 0x30, 0x3e, 0xcc, 0x7b, 0x7c, 0x3d, 0x71, 0x0a, 0x8c, 0x3b, 0xc3, 0xb3, 0xbe, 0x3e, 0xd5, 0xba, 0x8e, 0x3e, 0x6e, 0x4a, 0xbf, 0x3e, 0xbe, 0x4c, 0x82, 0x3d, 0x98, 0x56, 0x32, 0xbd, 0xc0, 0xce, 0x0d, 0x3f, 0x77, 0xdb, 0x65, 0x3e, 0xbb, 0xb1, 0xcf, 0xbd, 0x5f, 0x4f, 0x0f, 0x3e, 0xdc, 0x63, 0x13, 0xbd, 0x77, 0xe4, 0x3d, 0x3d, 0xda, 0x98, 0x61, 0xbd, 0x28, 0x24, 0x99, 0x3d, 0x55, 0x26, 0x2d, 0x3d, 0x5b, 0x78, 0x60, 0xbe, 0xee, 0xbf, 0x9e, 0x3e, 0x27, 0x12, 0x79, 0xbe, 0xd1, 0x25, 0x1e, 0xbe, 0x6a, 0x79, 0x14, 0x3e, 0xc9, 0x4f, 0x91, 0x3e, 0xf6, 0xb2, 0x26, 0x3f, 0x24, 0xd0, 0x12, 0xbd, 0x36, 0x6b, 0x0a, 0x3e, 0xcc, 0xb4, 0x0d, 0x3f, 0x74, 0xe8, 0x04, 0xbe, 0x91, 0x69, 0x1f, 0xbe, 0xeb, 0xc6, 0x3f, 0x3f, 0xe3, 0xfe, 0x0f, 0x3e, 0xf3, 0xc6, 0x1b, 0x3e, 0x0a, 0x80, 0x34, 0x3e, 0x45, 0xc7, 0xbb, 0xbe, 0xd4, 0x5c, 0x2e, 0xbf, 0x30, 0x79, 0xd1, 0x3d, 0x1d, 0x9d, 0x39, 0x3e, 0xa2, 0x56, 0xfa, 0x3d, 0xdc, 0x74, 0xb2, 0xbd, 0x4c, 0x94, 0x40, 0x3e, 0x7d, 0xbe, 0xd2, 0x3c, 0x38, 0x02, 0x62, 0x3d, 0xbc, 0x8a, 0x9b, 0x3e, 0x94, 0x8d, 0x67, 0xbb, 0x30, 0x53, 0x3e, 0xbe, 0x12, 0xf5, 0xe0, 0xbc, 0x6f, 0xd6, 0x33, 0xbd, 0xa1, 0x36, 0x29, 0xbd, 0xd5, 0x61, 0xc5, 0x3c, 0xc0, 0x5d, 0xaa, 0xbe, 0x81, 0x60, 0x2a, 0xbe, 0xe9, 0x52, 0xe6, 0xbd, 0x52, 0x87, 0x2c, 0xbe, 0x51, 0xd2, 0xc6, 0x3d, 0xa3, 0x07, 0x9f, 0x3d, 0xcd, 0x7a, 0x03, 0xbf, 0xeb, 0x5e, 0x57, 0x3e, 0x2a, 0xb0, 0x82, 0x3e, 0xb8, 0xec, 0xff, 0xbe, 0xa2, 0xf8, 0x65, 0x3d, 0xdd, 0xf4, 0x30, 0x3e, 0x3d, 0xc5, 0x45, 0xbe, 0x41, 0x23, 0x5e, 0x3e, 0x75, 0x44, 0x29, 0x3e, 0xf3, 0x1e, 0x97, 0x3e, 0x26, 0x8a, 0x8f, 0xbc, 0xd7, 0x9f, 0x06, 0x3f, 0x53, 0x53, 0x15, 0xbd, 0x05, 0xd6, 0x3a, 0x3e, 0x2c, 0x75, 0x80, 0x3e, 0x3b, 0x15, 0xac, 0xbd, 0x19, 0xcc, 0x2c, 0xbf, 0x48, 0xed, 0xab, 0x3d, 0x36, 0xfa, 0x8f, 0xbc, 0x1c, 0xa5, 0xef, 0xbe, 0x8a, 0xbf, 0x2b, 0xbe, 0x29, 0xfb, 0xa1, 0xbe, 0x0b, 0xec, 0x1b, 0xbf, 0xdd, 0x14, 0x97, 0x3e, 0x21, 0xfc, 0xa9, 0xbd, 0x65, 0xf1, 0x60, 0x3d, 0x92, 0xaa, 0x68, 0x3d, 0x6c, 0x51, 0x02, 0x3f, 0xe6, 0xea, 0x00, 0x3e, 0x80, 0xa6, 0x84, 0xbd, 0xda, 0x7b, 0x89, 0x3e, 0xf6, 0xa5, 0x9d, 0xbe, 0x5a, 0x1e, 0x76, 0x3d, 0x03, 0xba, 0x96, 0x3e, 0xfa, 0x71, 0xa2, 0x3e, 0x56, 0xe0, 0xe0, 0xbd, 0x23, 0x68, 0x18, 0x3e, 0xc3, 0xe9, 0xba, 0xbe, 0xf7, 0x2d, 0x40, 0xbe, 0xf4, 0x69, 0xa3, 0xbc, 0xdc, 0xd0, 0x17, 0x3e, 0x1d, 0xba, 0xb3, 0x3c, 0x49, 0x6e, 0x69, 0xbe, 0xd6, 0xa2, 0x22, 0xbd, 0x0e, 0x08, 0xb4, 0xbe, 0x36, 0x0d, 0xed, 0xbe, 0xc8, 0xc0, 0x80, 0x3d, 0xc6, 0x72, 0xa9, 0xbd, 0x15, 0xcd, 0x59, 0xbe, 0x17, 0x9c, 0xb0, 0xbe, 0x8e, 0x9d, 0xa8, 0xbe, 0xd4, 0x82, 0xa9, 0x3d, 0x54, 0x06, 0x12, 0x3d, 0xc2, 0x88, 0x4f, 0x3e, 0x23, 0x7d, 0x6a, 0x3e, 0x0c, 0x6f, 0x53, 0xbe, 0xd0, 0x24, 0x3b, 0xbe, 0x8f, 0x66, 0x12, 0x3f, 0x02, 0xf3, 0xfa, 0xbc, 0xc1, 0x1b, 0x77, 0x3d, 0xdb, 0x28, 0xa1, 0x3e, 0xfb, 0x5a, 0x1e, 0x3e, 0x56, 0xde, 0x6f, 0x3e, 0x61, 0xab, 0x6f, 0xbe, 0x7e, 0x15, 0xf7, 0xbe, 0x7f, 0x26, 0x31, 0x3e, 0x58, 0x77, 0xe6, 0x3c, 0xfe, 0x15, 0x15, 0xbf, 0xe3, 0x8b, 0xb9, 0x3d, 0xd5, 0xca, 0x13, 0xbc, 0x60, 0xad, 0xc4, 0xbe, 0x8c, 0x2e, 0x84, 0x3d, 0xb8, 0xc9, 0xd7, 0xbd, 0xea, 0xbb, 0x89, 0x3d, 0x04, 0xf5, 0x69, 0x3e, 0x77, 0x83, 0x28, 0x3f, 0x5b, 0x37, 0xda, 0x3c, 0x11, 0x59, 0xdf, 0x3d, 0xfd, 0xd0, 0xeb, 0xbd, 0x69, 0x73, 0x2b, 0x3d, 0x03, 0xb0, 0x6b, 0x3e, 0x0a, 0x7a, 0xa8, 0xbe, 0xbb, 0x9c, 0x92, 0x3c, 0x79, 0x71, 0xb8, 0xbe, 0xd9, 0xb9, 0x92, 0x3c, 0x8c, 0x1d, 0xfe, 0x3e, 0x3c, 0x74, 0x36, 0x3e, 0x18, 0x98, 0x81, 0x3e, 0x43, 0x1e, 0x2c, 0xbd, 0xd4, 0xf4, 0x0d, 0x3d, 0x77, 0x47, 0x35, 0x3e, 0x32, 0xa6, 0x80, 0xbe, 0xc7, 0xc3, 0x2b, 0x3d, 0x25, 0x28, 0xec, 0xbd, 0xf5, 0xa9, 0x40, 0x3d, 0x22, 0x46, 0x20, 0x3c, 0x66, 0xb0, 0xfb, 0xbc, 0x47, 0xde, 0xed, 0xbe, 0x09, 0x55, 0x08, 0xbf, 0xb1, 0xbc, 0x1a, 0xbd, 0xd2, 0x25, 0xab, 0xbe, 0xcd, 0x5d, 0xaa, 0x3d, 0x5b, 0x27, 0x61, 0xbe, 0x76, 0x2c, 0x91, 0x3e, 0x54, 0xc8, 0xc5, 0xbd, 0xcb, 0x50, 0xf7, 0x3d, 0x48, 0x1d, 0x47, 0xbd, 0xdf, 0xfb, 0x7f, 0xbe, 0x41, 0xa1, 0x50, 0x3e, 0x57, 0xa5, 0x57, 0x3e, 0x05, 0xb5, 0x6c, 0x3e, 0x24, 0x3a, 0x0c, 0xbf, 0x58, 0xa7, 0x55, 0xbe, 0xbf, 0x23, 0xaa, 0x3e, 0x29, 0xb7, 0xb0, 0x3d, 0x51, 0x48, 0x38, 0xbd, 0x07, 0x8e, 0x8f, 0xbe, 0xd6, 0x6c, 0x3c, 0xbf, 0x0b, 0x33, 0xc7, 0xbd, 0xbf, 0xcc, 0x9a, 0x3c, 0x44, 0x67, 0xdd, 0x3d, 0x72, 0xa6, 0x9a, 0xbe, 0x61, 0x83, 0x23, 0x3d, 0x29, 0x53, 0x85, 0x3e, 0xf2, 0x7a, 0xc8, 0xbe, 0x55, 0x7b, 0x01, 0x3e, 0x94, 0x24, 0xa3, 0x3d, 0x74, 0xce, 0x84, 0x3e, 0x2d, 0x0c, 0x90, 0x3c, 0x7f, 0xed, 0x1e, 0x3d, 0xd2, 0xbd, 0x70, 0x3e, 0xc1, 0xe6, 0x00, 0x3e, 0xa0, 0x26, 0xd0, 0x3d, 0x0c, 0xe4, 0x01, 0x3f, 0x24, 0x65, 0x43, 0xbd, 0x50, 0x27, 0xf8, 0x3e, 0x03, 0xea, 0x34, 0x3e, 0x59, 0x33, 0x17, 0xbe, 0x1e, 0x0a, 0xb3, 0x3e, 0xd5, 0x0f, 0x59, 0x3e, 0xcc, 0x8c, 0xad, 0x3e, 0x29, 0x10, 0xa1, 0x3e, 0x84, 0x85, 0x9b, 0x3e, 0xe5, 0xaf, 0x88, 0x3e, 0xe5, 0x14, 0x94, 0x3e, 0x79, 0x27, 0x87, 0xbe, 0xdd, 0x10, 0x03, 0x3d, 0x86, 0xa8, 0xa3, 0xbd, 0xe2, 0x23, 0x1c, 0xbe, 0x68, 0xcc, 0xe8, 0x3d, 0x6a, 0x3f, 0x5f, 0x3d, 0x36, 0x26, 0x1d, 0xbe, 0x29, 0xea, 0x26, 0xbc, 0xb4, 0x82, 0x6e, 0xbe, 0xf8, 0x41, 0xb4, 0xbe, 0x3c, 0x47, 0x49, 0xbe, 0x31, 0x1b, 0x38, 0xbd, 0x52, 0x01, 0x25, 0x3e, 0x41, 0x09, 0x82, 0x3d, 0x8d, 0xef, 0x29, 0x3e, 0x78, 0x4e, 0x48, 0xbe, 0x8c, 0xc1, 0x8e, 0x3d, 0x7b, 0xdd, 0x1b, 0x3f, 0x14, 0x0b, 0x44, 0x3c, 0x14, 0xf0, 0x86, 0x3e, 0xb7, 0xf1, 0x50, 0xbe, 0x66, 0xe6, 0xe3, 0x3d, 0x97, 0x06, 0xb7, 0x3e, 0xa7, 0x2a, 0x1d, 0x3f, 0x62, 0x7a, 0x0f, 0xbf, 0x59, 0x25, 0x2a, 0x3e, 0xea, 0x32, 0x25, 0xbd, 0x3f, 0x2a, 0x69, 0x3b, 0x37, 0xd8, 0x7a, 0xbe, 0x86, 0xea, 0x10, 0xbe, 0xbe, 0xa8, 0x64, 0xbe, 0xeb, 0x7e, 0xb8, 0x3d, 0xf5, 0x14, 0x9a, 0x3d, 0xd6, 0x00, 0xaa, 0xbe, 0xcf, 0x94, 0x44, 0x3e, 0x2e, 0xcb, 0x33, 0xbe, 0xb5, 0xdb, 0x1a, 0xbf, 0x97, 0x50, 0x7f, 0xbd, 0xcf, 0x1d, 0x8b, 0xbe, 0xd7, 0xcc, 0x3c, 0x3e, 0x2e, 0x02, 0x3e, 0x3e, 0x7e, 0xca, 0x2d, 0xbf, 0x95, 0xda, 0x26, 0xbe, 0xb7, 0xb1, 0xc3, 0xbe, 0xea, 0xeb, 0x85, 0x3d, 0xbf, 0x9d, 0xbd, 0xbe, 0x51, 0x36, 0xaa, 0xbe, 0xff, 0x6e, 0x1a, 0xbe, 0x65, 0x1a, 0x35, 0xbe, 0x9a, 0x9d, 0x76, 0xbe, 0xde, 0xc9, 0x0d, 0x3e, 0x30, 0x8a, 0x4f, 0xbe, 0xfd, 0x9c, 0xaf, 0x3e, 0xd1, 0xdc, 0xa9, 0xbd, 0x62, 0x5f, 0x97, 0x3e, 0x69, 0xfc, 0x13, 0xbd, 0xe8, 0x92, 0x88, 0xbd, 0xbb, 0xb4, 0xdb, 0x3d, 0x9e, 0x4f, 0xe8, 0xbd, 0xb5, 0x0b, 0xce, 0x3e, 0x47, 0xa7, 0xa6, 0xbe, 0x25, 0xc5, 0x35, 0x3e, 0x85, 0xee, 0x6d, 0x3e, 0x97, 0x12, 0x4d, 0x3e, 0x37, 0xb7, 0xfe, 0x3d, 0x1b, 0x6d, 0x26, 0xbf, 0x4b, 0xf8, 0x14, 0xbe, 0xc3, 0x9a, 0xec, 0xbe, 0x2f, 0xd2, 0xe1, 0xbd, 0x74, 0x3a, 0x9b, 0xbd, 0x0d, 0xe6, 0x8b, 0xbe, 0x42, 0xe0, 0x21, 0xbf, 0x3c, 0x59, 0xdd, 0x3e, 0xdb, 0x06, 0x4a, 0xbe, 0x67, 0xf9, 0xde, 0x3d, 0x57, 0xdc, 0x5f, 0x3e, 0x45, 0x56, 0x98, 0x3e, 0xce, 0x35, 0x97, 0x3c, 0x1e, 0x5d, 0xe2, 0x3b, 0xbb, 0x6e, 0x34, 0xbe, 0xc2, 0x5d, 0xfe, 0xbc, 0x0d, 0xd4, 0x15, 0x3e, 0x98, 0x6b, 0xa5, 0xbc, 0xc2, 0xf4, 0x8b, 0xbd, 0x97, 0x78, 0x2f, 0x3e, 0xe4, 0x59, 0xbd, 0xbd, 0xb9, 0x60, 0x00, 0x3f, 0xa3, 0xb8, 0x90, 0x3e, 0x75, 0x7d, 0x73, 0xbd, 0x52, 0x5a, 0x01, 0x3f, 0x2f, 0x4b, 0x3b, 0x3e, 0x9e, 0xa2, 0x8c, 0x3e, 0x9c, 0x18, 0x86, 0xbe, 0x72, 0xe5, 0x2b, 0x3d, 0xcd, 0xcd, 0x52, 0x3e, 0x5f, 0x00, 0x6f, 0xbe, 0x11, 0xb3, 0x7b, 0xbe, 0xc9, 0xf2, 0xed, 0xbe, 0x6b, 0xc0, 0x3a, 0x3e, 0x5e, 0x35, 0xa7, 0x3d, 0xd1, 0x4a, 0x05, 0x3e, 0x7f, 0x4f, 0x19, 0x3d, 0xdb, 0x9e, 0x41, 0xbe, 0xc0, 0xd9, 0xf5, 0xbe, 0x25, 0x09, 0x66, 0x3e, 0xb1, 0x0a, 0x1c, 0x3c, 0x94, 0x04, 0x44, 0xbe, 0x28, 0x96, 0x4e, 0xbe, 0xf0, 0x0f, 0xca, 0xbd, 0xb2, 0x8a, 0xd6, 0xbd, 0xed, 0x4a, 0x61, 0x3d, 0xdb, 0x17, 0x58, 0x3d, 0x89, 0x64, 0x01, 0xbf, 0x44, 0xba, 0x95, 0x3d, 0xea, 0x9b, 0xc9, 0x3d, 0xe8, 0x95, 0x4e, 0xbe, 0xbf, 0xd0, 0x0c, 0x3f, 0x3c, 0xac, 0xba, 0x3e, 0xa8, 0xe7, 0x94, 0xbd, 0x9d, 0xe5, 0xf9, 0xbd, 0x97, 0x3b, 0xd6, 0x3d, 0x07, 0x92, 0x86, 0x3e, 0xa7, 0xc9, 0x89, 0xbe, 0x86, 0xf8, 0x2d, 0x3e, 0x67, 0x2a, 0x05, 0x3e, 0x56, 0x09, 0xfb, 0xbd, 0x37, 0x41, 0x2b, 0x3e, 0x95, 0x29, 0x17, 0x3f, 0xf3, 0xcd, 0x9e, 0xbe, 0x74, 0x41, 0x81, 0x3d, 0xc6, 0xff, 0x44, 0x3e, 0x8d, 0x82, 0xf2, 0x3d, 0xf9, 0xab, 0x78, 0xbd, 0xcb, 0x6e, 0x31, 0x3f, 0xb2, 0x56, 0x61, 0xbe, 0x8b, 0x9f, 0xe3, 0x3c, 0x7f, 0x31, 0xa2, 0xbd, 0x9d, 0x97, 0x55, 0xbe, 0x54, 0x23, 0x29, 0xbf, 0x88, 0x76, 0x06, 0xbe, 0x67, 0xf5, 0xed, 0x3d, 0xd3, 0x52, 0xb1, 0x3e, 0x4a, 0x53, 0x3a, 0xbe, 0x36, 0x67, 0x83, 0xbe, 0x10, 0x0f, 0x92, 0x3e, 0x2d, 0x14, 0xb2, 0xbe, 0xd1, 0x27, 0x02, 0x3e, 0x8e, 0x5f, 0x96, 0xbd, 0xd4, 0x47, 0x86, 0xbe, 0xc7, 0xe5, 0xb0, 0x3e, 0x6a, 0x0c, 0x02, 0xbf, 0x22, 0x05, 0xf0, 0x3d, 0xb7, 0xb3, 0x1f, 0x3e, 0xf2, 0x15, 0x22, 0xbf, 0x83, 0x85, 0x91, 0x3d, 0xcf, 0x91, 0xa7, 0xbe, 0x68, 0xb7, 0x7c, 0x3c, 0x49, 0xc5, 0x5b, 0xbe, 0x47, 0x36, 0x5b, 0x3d, 0x46, 0xc9, 0xd1, 0x3e, 0xa4, 0x20, 0xe6, 0xbe, 0x09, 0xee, 0xc0, 0xbc, 0x12, 0x2f, 0x28, 0xbe, 0x0e, 0x32, 0x96, 0xbd, 0xae, 0x1a, 0x62, 0x3e, 0x1e, 0x5e, 0x3a, 0x3e, 0xbb, 0xe2, 0x45, 0x3e, 0xe5, 0x7b, 0x0c, 0xbc, 0x99, 0x4d, 0x42, 0x3c, 0x6c, 0xa4, 0x4e, 0x3d, 0x94, 0x4b, 0x97, 0xbe, 0x8c, 0x85, 0x9f, 0xbc, 0x09, 0x07, 0x37, 0x3e, 0x2a, 0x44, 0x9e, 0x3e, 0x8c, 0xb2, 0x02, 0x3f, 0xd0, 0x85, 0xce, 0x3d, 0xdf, 0x3e, 0xf5, 0x3c, 0x2a, 0x83, 0xa9, 0x3e, 0x80, 0xdd, 0xdb, 0x3d, 0x98, 0xe7, 0x7b, 0x3e, 0x5b, 0x43, 0x91, 0x3e, 0x64, 0x95, 0x92, 0xbd, 0xe5, 0xf9, 0x3e, 0xbe, 0xe8, 0x5b, 0x4a, 0x3e, 0x3f, 0xda, 0x8b, 0xbe, 0x86, 0x04, 0x42, 0xbe, 0x58, 0x05, 0xd0, 0xbd, 0x3f, 0x4a, 0xbc, 0x3d, 0x65, 0x10, 0x97, 0x3e, 0x7a, 0xf0, 0xa4, 0x3e, 0xc1, 0x5a, 0x01, 0xbe, 0x5a, 0xa0, 0x0d, 0x3b, 0x24, 0xf3, 0x12, 0x3f, 0xf6, 0x67, 0x83, 0x3d, 0x28, 0x5b, 0x16, 0xbe, 0xe3, 0x65, 0xd1, 0x3d, 0xea, 0x49, 0x17, 0xbf, 0xfa, 0x6f, 0xbb, 0xbd, 0x15, 0x56, 0xe1, 0xbe, 0x59, 0xb2, 0xdd, 0xbc, 0xd6, 0xc6, 0x43, 0xbe, 0x6d, 0x44, 0x90, 0xbe, 0xb6, 0xc4, 0x90, 0x3d, 0xc4, 0x84, 0x7e, 0xbd, 0xc1, 0x1d, 0x9e, 0xbe, 0x6c, 0x02, 0xb6, 0xbe, 0xcd, 0xab, 0x7a, 0xbe, 0x00, 0x67, 0x07, 0x3e, 0x46, 0xb4, 0xb3, 0x3e, 0x74, 0x68, 0x9e, 0xbe, 0x45, 0xe4, 0xab, 0xbe, 0x56, 0x9f, 0x50, 0xbe, 0xc0, 0x96, 0x2e, 0xbd, 0xa0, 0xfd, 0x9f, 0xbe, 0x21, 0xda, 0xbc, 0x3e, 0xe6, 0xeb, 0x75, 0x3d, 0x02, 0x8c, 0x87, 0xbd, 0x88, 0xcb, 0xe7, 0x3d, 0xf0, 0x2c, 0xaa, 0xbd, 0x65, 0x87, 0x93, 0x3e, 0x7e, 0x7f, 0xe5, 0x3e, 0x41, 0xde, 0x11, 0x3d, 0x3d, 0x42, 0xf1, 0x3e, 0x82, 0x74, 0x1c, 0x3e, 0x40, 0x3f, 0x9a, 0x3e, 0xc9, 0x10, 0x91, 0x3e, 0xb3, 0xd2, 0xd7, 0x3d, 0x0f, 0x4d, 0x0f, 0x3f, 0xc9, 0x85, 0xc9, 0x3d, 0x4d, 0x1e, 0x35, 0x3e, 0x6c, 0x68, 0x6d, 0x3e, 0xa3, 0x23, 0x37, 0x3f, 0x75, 0x08, 0x04, 0xbf, 0x76, 0x4e, 0x7a, 0x3d, 0xad, 0x27, 0xfb, 0xbd, 0xe7, 0x88, 0x19, 0xbe, 0xa2, 0x14, 0x8a, 0x3e, 0xdb, 0x26, 0x99, 0xbd, 0x4c, 0x5e, 0x19, 0x3e, 0xa6, 0x03, 0x95, 0x3d, 0x84, 0x52, 0x55, 0xbe, 0x2a, 0xab, 0xb4, 0x3c, 0x19, 0x10, 0x58, 0x3c, 0xe8, 0x56, 0x74, 0x3e, 0x53, 0x90, 0xc3, 0x3d, 0xcd, 0x34, 0x1c, 0xbe, 0xbd, 0x9f, 0x2c, 0xbe, 0x46, 0xb8, 0x6e, 0x3e, 0xce, 0xc3, 0x1a, 0xbf, 0x29, 0x6b, 0xcb, 0xbe, 0xb4, 0xc2, 0x63, 0xbc, 0x84, 0x9a, 0x35, 0xbe, 0x6d, 0xec, 0x9b, 0xbc, 0xd5, 0xb1, 0x52, 0x3b, 0x65, 0xb6, 0xd5, 0x3e, 0x2e, 0x4d, 0x42, 0xbe, 0x4a, 0xaf, 0x51, 0xbe, 0x00, 0x9f, 0xf7, 0x3a, 0x7f, 0x59, 0x60, 0xbe, 0xd0, 0x6b, 0x81, 0x3e, 0x22, 0x8b, 0x95, 0x3e, 0x37, 0x83, 0x17, 0x3e, 0x9c, 0x88, 0xcb, 0x3e, 0xdc, 0x5b, 0xe0, 0x3d, 0xf6, 0x5e, 0xd9, 0xbd, 0x22, 0x68, 0x3f, 0x3e, 0xc0, 0xb8, 0x1d, 0x3e, 0x1d, 0x5c, 0xc7, 0xbd, 0xc8, 0x16, 0xb3, 0x3c, 0xce, 0x1b, 0x87, 0x3e, 0x65, 0x1b, 0xa9, 0xbe, 0xa7, 0x9e, 0x3d, 0x3e, 0x7f, 0x48, 0x49, 0x3e, 0x77, 0x01, 0x4d, 0x3c, 0x47, 0x82, 0x85, 0x3e, 0x0f, 0x7a, 0x39, 0xbe, 0xc9, 0xa7, 0x14, 0xbf, 0x54, 0xba, 0x95, 0x3e, 0xc1, 0xe0, 0xb8, 0xbe, 0xc7, 0xef, 0xaa, 0xbe, 0x62, 0x7a, 0x78, 0x3d, 0x2e, 0x6d, 0x84, 0xbd, 0x8b, 0x39, 0x55, 0x3e, 0x95, 0x90, 0xde, 0xbd, 0x38, 0xfb, 0xff, 0xff, 0x0f, 0x00, 0x00, 0x00, 0x54, 0x4f, 0x43, 0x4f, 0x20, 0x43, 0x6f, 0x6e, 0x76, 0x65, 0x72, 0x74, 0x65, 0x64, 0x2e, 0x00, 0x01, 0x00, 0x00, 0x00, 0x10, 0x00, 0x00, 0x00, 0x0c, 0x00, 0x14, 0x00, 0x04, 0x00, 0x08, 0x00, 0x0c, 0x00, 0x10, 0x00, 0x0c, 0x00, 0x00, 0x00, 0x1c, 0x01, 0x00, 0x00, 0x10, 0x01, 0x00, 0x00, 0x04, 0x01, 0x00, 0x00, 0x04, 0x00, 0x00, 0x00, 0x04, 0x00, 0x00, 0x00, 0xc8, 0x00, 0x00, 0x00, 0x84, 0x00, 0x00, 0x00, 0x50, 0x00, 0x00, 0x00, 0x14, 0x00, 0x00, 0x00, 0x00, 0x00, 0x0e, 0x00, 0x1a, 0x00, 0x08, 0x00, 0x0c, 0x00, 0x10, 0x00, 0x07, 0x00, 0x14, 0x00, 0x0e, 0x00, 0x00, 0x00, 0x00, 0x00, 0x00, 0x09, 0x01, 0x00, 0x00, 0x00, 0x24, 0x00, 0x00, 0x00, 0x18, 0x00, 0x00, 0x00, 0x0c, 0x00, 0x00, 0x00, 0x00, 0x00, 0x06, 0x00, 0x08, 0x00, 0x04, 0x00, 0x06, 0x00, 0x00, 0x00, 0x00, 0x00, 0x80, 0x3f, 0x01, 0x00, 0x00, 0x00, 0x00, 0x00, 0x00, 0x00, 0x01, 0x00, 0x00, 0x00, 0x08, 0x00, 0x00, 0x00, 0x9e, 0xff, 0xff, 0xff, 0x00, 0x00, 0x00, 0x08, 0x18, 0x00, 0x00, 0x00, 0x0c, 0x00, 0x00, 0x00, 0x04, 0x00, 0x00, 0x00, 0xe8, 0xfb, 0xff, 0xff, 0x01, 0x00, 0x00, 0x00, 0x08, 0x00, 0x00, 0x00, 0x03, 0x00, 0x00, 0x00, 0x05, 0x00, 0x00, 0x00, 0x09, 0x00, 0x00, 0x00, 0x0a, 0x00, 0x00, 0x00, 0xce, 0xff, 0xff, 0xff, 0x00, 0x00, 0x00, 0x08, 0x18, 0x00, 0x00, 0x00, 0x0c, 0x00, 0x00, 0x00, 0x04, 0x00, 0x00, 0x00, 0x18, 0xfc, 0xff, 0xff, 0x01, 0x00, 0x00, 0x00, 0x05, 0x00, 0x00, 0x00, 0x03, 0x00, 0x00, 0x00, 0x02, 0x00, 0x00, 0x00, 0x06, 0x00, 0x00, 0x00, 0x07, 0x00, 0x00, 0x00, 0x00, 0x00, 0x0e, 0x00, 0x14, 0x00, 0x00, 0x00, 0x08, 0x00, 0x0c, 0x00, 0x07, 0x00, 0x10, 0x00, 0x0e, 0x00, 0x00, 0x00, 0x00, 0x00, 0x00, 0x08, 0x18, 0x00, 0x00, 0x00, 0x0c, 0x00, 0x00, 0x00, 0x04, 0x00, 0x00, 0x00, 0x58, 0xfc, 0xff, 0xff, 0x01, 0x00, 0x00, 0x00, 0x02, 0x00, 0x00, 0x00, 0x03, 0x00, 0x00, 0x00, 0x01, 0x00, 0x00, 0x00, 0x03, 0x00, 0x00, 0x00, 0x04, 0x00, 0x00, 0x00, 0x01, 0x00, 0x00, 0x00, 0x00, 0x00, 0x00, 0x00, 0x01, 0x00, 0x00, 0x00, 0x01, 0x00, 0x00, 0x00, 0x0b, 0x00, 0x00, 0x00, 0x64, 0x03, 0x00, 0x00, 0xf8, 0x02, 0x00, 0x00, 0xac, 0x02, 0x00, 0x00, 0x48, 0x02, 0x00, 0x00, 0xfc, 0x01, 0x00, 0x00, 0xb0, 0x01, 0x00, 0x00, 0x4c, 0x01, 0x00, 0x00, 0x00, 0x01, 0x00, 0x00, 0xb4, 0x00, 0x00, 0x00, 0x50, 0x00, 0x00, 0x00, 0x04, 0x00, 0x00, 0x00, 0xd6, 0xfc, 0xff, 0xff, 0x3c, 0x00, 0x00, 0x00, 0x0b, 0x00, 0x00, 0x00, 0x0c, 0x00, 0x00, 0x00, 0x04, 0x00, 0x00, 0x00, 0xc8, 0xfc, 0xff, 0xff, 0x21, 0x00, 0x00, 0x00, 0x73, 0x65, 0x71, 0x75, 0x65, 0x6e, 0x74, 0x69, 0x61, 0x6c, 0x5f, 0x36, 0x2f, 0x64, 0x65, 0x6e, 0x73, 0x65, 0x5f, 0x31, 0x38, 0x2f, 0x4d, 0x61, 0x74, 0x4d, 0x75, 0x6c, 0x5f, 0x62, 0x69, 0x61, 0x73, 0x00, 0x00, 0x00, 0x01, 0x00, 0x00, 0x00, 0x04, 0x00, 0x00, 0x00, 0x1e, 0xfd, 0xff, 0xff, 0x50, 0x00, 0x00, 0x00, 0x0a, 0x00, 0x00, 0x00, 0x0c, 0x00, 0x00, 0x00, 0x04, 0x00, 0x00, 0x00, 0x10, 0xfd, 0xff, 0xff, 0x35, 0x00, 0x00, 0x00, 0x73, 0x65, 0x71, 0x75, 0x65, 0x6e, 0x74, 0x69, 0x61, 0x6c, 0x5f, 0x36, 0x2f, 0x64, 0x65, 0x6e, 0x73, 0x65, 0x5f, 0x31, 0x38, 0x2f, 0x4d, 0x61, 0x74, 0x4d, 0x75, 0x6c, 0x2f, 0x52, 0x65, 0x61, 0x64, 0x56, 0x61, 0x72, 0x69, 0x61, 0x62, 0x6c, 0x65, 0x4f, 0x70, 0x2f, 0x74, 0x72, 0x61, 0x6e, 0x73, 0x70, 0x6f, 0x73, 0x65, 0x00, 0x00, 0x00, 0x02, 0x00, 0x00, 0x00, 0x04, 0x00, 0x00, 0x00, 0x20, 0x00, 0x00, 0x00, 0x7e, 0xfd, 0xff, 0xff, 0x38, 0x00, 0x00, 0x00, 0x06, 0x00, 0x00, 0x00, 0x0c, 0x00, 0x00, 0x00, 0x04, 0x00, 0x00, 0x00, 0x70, 0xfd, 0xff, 0xff, 0x1d, 0x00, 0x00, 0x00, 0x73, 0x65, 0x71, 0x75, 0x65, 0x6e, 0x74, 0x69, 0x61, 0x6c, 0x5f, 0x36, 0x2f, 0x64, 0x65, 0x6e, 0x73, 0x65, 0x5f, 0x31, 0x38, 0x2f, 0x42, 0x69, 0x61, 0x73, 0x41, 0x64, 0x64, 0x00, 0x00, 0x00, 0x02, 0x00, 0x00, 0x00, 0x01, 0x00, 0x00, 0x00, 0x04, 0x00, 0x00, 0x00, 0xc6, 0xfd, 0xff, 0xff, 0x3c, 0x00, 0x00, 0x00, 0x09, 0x00, 0x00, 0x00, 0x0c, 0x00, 0x00, 0x00, 0x04, 0x00, 0x00, 0x00, 0xb8, 0xfd, 0xff, 0xff, 0x21, 0x00, 0x00, 0x00, 0x73, 0x65, 0x71, 0x75, 0x65, 0x6e, 0x74, 0x69, 0x61, 0x6c, 0x5f, 0x36, 0x2f, 0x64, 0x65, 0x6e, 0x73, 0x65, 0x5f, 0x31, 0x37, 0x2f, 0x4d, 0x61, 0x74, 0x4d, 0x75, 0x6c, 0x5f, 0x62, 0x69, 0x61, 0x73, 0x00, 0x00, 0x00, 0x01, 0x00, 0x00, 0x00, 0x20, 0x00, 0x00, 0x00, 0x0e, 0xfe, 0xff, 0xff, 0x50, 0x00, 0x00, 0x00, 0x01, 0x00, 0x00, 0x00, 0x0c, 0x00, 0x00, 0x00, 0x04, 0x00, 0x00, 0x00, 0x00, 0xfe, 0xff, 0xff, 0x35, 0x00, 0x00, 0x00, 0x73, 0x65, 0x71, 0x75, 0x65, 0x6e, 0x74, 0x69, 0x61, 0x6c, 0x5f, 0x36, 0x2f, 0x64, 0x65, 0x6e, 0x73, 0x65, 0x5f, 0x31, 0x37, 0x2f, 0x4d, 0x61, 0x74, 0x4d, 0x75, 0x6c, 0x2f, 0x52, 0x65, 0x61, 0x64, 0x56, 0x61, 0x72, 0x69, 0x61, 0x62, 0x6c, 0x65, 0x4f, 0x70, 0x2f, 0x74, 0x72, 0x61, 0x6e, 0x73, 0x70, 0x6f, 0x73, 0x65, 0x00, 0x00, 0x00, 0x02, 0x00, 0x00, 0x00, 0x20, 0x00, 0x00, 0x00, 0x10, 0x00, 0x00, 0x00, 0x6e, 0xfe, 0xff, 0xff, 0x38, 0x00, 0x00, 0x00, 0x05, 0x00, 0x00, 0x00, 0x0c, 0x00, 0x00, 0x00, 0x04, 0x00, 0x00, 0x00, 0x60, 0xfe, 0xff, 0xff, 0x1d, 0x00, 0x00, 0x00, 0x73, 0x65, 0x71, 0x75, 0x65, 0x6e, 0x74, 0x69, 0x61, 0x6c, 0x5f, 0x36, 0x2f, 0x64, 0x65, 0x6e, 0x73, 0x65, 0x5f, 0x31, 0x37, 0x2f, 0x42, 0x69, 0x61, 0x73, 0x41, 0x64, 0x64, 0x00, 0x00, 0x00, 0x02, 0x00, 0x00, 0x00, 0x01, 0x00, 0x00, 0x00, 0x20, 0x00, 0x00, 0x00, 0xb6, 0xfe, 0xff, 0xff, 0x3c, 0x00, 0x00, 0x00, 0x04, 0x00, 0x00, 0x00, 0x0c, 0x00, 0x00, 0x00, 0x04, 0x00, 0x00, 0x00, 0xa8, 0xfe, 0xff, 0xff, 0x21, 0x00, 0x00, 0x00, 0x73, 0x65, 0x71, 0x75, 0x65, 0x6e, 0x74, 0x69, 0x61, 0x6c, 0x5f, 0x36, 0x2f, 0x64, 0x65, 0x6e, 0x73, 0x65, 0x5f, 0x31, 0x36, 0x2f, 0x4d, 0x61, 0x74, 0x4d, 0x75, 0x6c, 0x5f, 0x62, 0x69, 0x61, 0x73, 0x00, 0x00, 0x00, 0x01, 0x00, 0x00, 0x00, 0x10, 0x00, 0x00, 0x00, 0xfe, 0xfe, 0xff, 0xff, 0x50, 0x00, 0x00, 0x00, 0x08, 0x00, 0x00, 0x00, 0x0c, 0x00, 0x00, 0x00, 0x04, 0x00, 0x00, 0x00, 0xf0, 0xfe, 0xff, 0xff, 0x35, 0x00, 0x00, 0x00, 0x73, 0x65, 0x71, 0x75, 0x65, 0x6e, 0x74, 0x69, 0x61, 0x6c, 0x5f, 0x36, 0x2f, 0x64, 0x65, 0x6e, 0x73, 0x65, 0x5f, 0x31, 0x36, 0x2f, 0x4d, 0x61, 0x74, 0x4d, 0x75, 0x6c, 0x2f, 0x52, 0x65, 0x61, 0x64, 0x56, 0x61, 0x72, 0x69, 0x61, 0x62, 0x6c, 0x65, 0x4f, 0x70, 0x2f, 0x74, 0x72, 0x61, 0x6e, 0x73, 0x70, 0x6f, 0x73, 0x65, 0x00, 0x00, 0x00, 0x02, 0x00, 0x00, 0x00, 0x10, 0x00, 0x00, 0x00, 0x10, 0x00, 0x00, 0x00, 0x5e, 0xff, 0xff, 0xff, 0x38, 0x00, 0x00, 0x00, 0x03, 0x00, 0x00, 0x00, 0x0c, 0x00, 0x00, 0x00, 0x04, 0x00, 0x00, 0x00, 0x50, 0xff, 0xff, 0xff, 0x1d, 0x00, 0x00, 0x00, 0x73, 0x65, 0x71, 0x75, 0x65, 0x6e, 0x74, 0x69, 0x61, 0x6c, 0x5f, 0x36, 0x2f, 0x64, 0x65, 0x6e, 0x73, 0x65, 0x5f, 0x31, 0x36, 0x2f, 0x42, 0x69, 0x61, 0x73, 0x41, 0x64, 0x64, 0x00, 0x00, 0x00, 0x02, 0x00, 0x00, 0x00, 0x01, 0x00, 0x00, 0x00, 0x10, 0x00, 0x00, 0x00, 0xa6, 0xff, 0xff, 0xff, 0x48, 0x00, 0x00, 0x00, 0x02, 0x00, 0x00, 0x00, 0x2c, 0x00, 0x00, 0x00, 0x0c, 0x00, 0x00, 0x00, 0x08, 0x00, 0x0c, 0x00, 0x04, 0x00, 0x08, 0x00, 0x08, 0x00, 0x00, 0x00, 0x10, 0x00, 0x00, 0x00, 0x04, 0x00, 0x00, 0x00, 0x01, 0x00, 0x00, 0x00, 0x00, 0x00, 0x7f, 0x43, 0x01, 0x00, 0x00, 0x00, 0x00, 0x00, 0x00, 0x00, 0x0e, 0x00, 0x00, 0x00, 0x64, 0x65, 0x6e, 0x73, 0x65, 0x5f, 0x31, 0x36, 0x5f, 0x69, 0x6e, 0x70, 0x75, 0x74, 0x00, 0x00, 0x02, 0x00, 0x00, 0x00, 0x01, 0x00, 0x00, 0x00, 0x10, 0x00, 0x00, 0x00, 0x00, 0x00, 0x0e, 0x00, 0x14, 0x00, 0x04, 0x00, 0x00, 0x00, 0x08, 0x00, 0x0c, 0x00, 0x10, 0x00, 0x0e, 0x00, 0x00, 0x00, 0x28, 0x00, 0x00, 0x00, 0x07, 0x00, 0x00, 0x00, 0x10, 0x00, 0x00, 0x00, 0x08, 0x00, 0x00, 0x00, 0x04, 0x00, 0x04, 0x00, 0x04, 0x00, 0x00, 0x00, 0x08, 0x00, 0x00, 0x00, 0x49, 0x64, 0x65, 0x6e, 0x74, 0x69, 0x74, 0x79, 0x00, 0x00, 0x00, 0x00, 0x02, 0x00, 0x00, 0x00, 0x01, 0x00, 0x00, 0x00, 0x04, 0x00, 0x00, 0x00, 0x02, 0x00, 0x00, 0x00, 0x20, 0x00, 0x00, 0x00, 0x0c, 0x00, 0x00, 0x00, 0x00, 0x00, 0x06, 0x00, 0x06, 0x00, 0x05, 0x00, 0x06, 0x00, 0x00, 0x00, 0x00, 0x19, 0x0a, 0x00, 0x0c, 0x00, 0x07, 0x00, 0x00, 0x00, 0x08, 0x00, 0x0a, 0x00, 0x00, 0x00, 0x00, 0x00, 0x00, 0x09, 0x03, 0x00, 0x00, 0x00};
const int model_data_len = 5368;
